fffffff9
00000005
fffffffb
00000001
00000003
00000002
00000003
00000006
00000007
fffffffe
00000005
fffffffd
00000005
fffffffe
fffffffb
fffffffd
00000000
00000005
00000007
00000006
00000006
00000000
fffffffb
00000000
00000001
00000005
ffffffff
fffffffe
00000005
00000006
fffffffc
00000000
fffffff9
00000002
00000000
fffffffd
